000000001000001000
111111101000010101
111111101000100111
111111101100010110
111111101011100110
111111101011000110
111111110001011100
111111110011101111
111111110011011110
111111110011000100
111111110000011001
111111111001110101
111111110011010010
000000000101111000
111111111010111101
000000001011011011
000000001010111000
000000000110110110
000000000100100110
000000001100011101
111111111110100000
111111111010110110
000000000001010110
000000000000000111
111111111110000011
111111110100000010
000000000101001111
000000001111110110
000000011101100010
111111110000101001
000000011111100001
111111111101011100
000000000101110110
000000011111101100
000000001111111100
000000010111010100
000000010000100001
000000010100011000
000000010101000111
000000010101001101
000000011001110000
000000101000111110
000000010011001000
000000010110010101
000000010001000111
000000001010000001
111111101011100110
111111110111001001
111111101100000010
111111101000111011
111111011100010111
111111100011111000
111111100111010110
111111101101101111
111111110010111010
111111110011010011
111111111011001111
000001101011101100
000000011001000010
000000101001101100
000000010111111000
000001000000000010
111111101101110111
000000011011100110
000000101100101101
000000100010010010
000000100100000110
000000110010110100
000000101011010010
000000100111100011
000000100000011000
000000100010110001
000000011010100100
111111011100000100
111111100101100010
111111111001001011
000000001000011000
111111110111110111
000000010000101011
000000000001001100
000000011101000011
000000001101111010
000000010101001001
000000001111001000
000000010101010001
000000011000111110
000000010011100110
000000010100101111
000000010010100001
111111110100011000
000000001000110100
111111111111001001
000000010011010100
000000010111000101
111111101001000100
000000001110101101
111110111111100010
111111100011101000
111111100001100100
111111100000111011
111111011110100111
111111100011101011
111111100100010000
111111100010100011
111111101010000011
111111110111011100
111111111111100100
111111110101100100
111111111111100000
000000010111001110
000000010110001001
111111111111110000
111111110010010000
000000000001111111
000000001001100100
111111111111010101
000000001001100010
000000000011001010
000000001000111110
000000000011010011
000000000100111100
111111000110110000
000000011000001110
000000101000111101
111111100000100100
000001010000100001
000000011010101011
000001001010110010
000000000111110110
111111110100111010
000000010111111111
111111111100110101
000000010010010010
000000010011000101
000000010000101111
000000001111110000
000000010110000000
000000001000110100
000001001111000000
111111111101110100
000000001110010111
000000101100110000
000000001101111010
000000011110010100
000000100001011111
000000010100101000
000000100011111100
000000001010101111
000000010000001001
000000001110000001
000000010001111111
000000010001011011
000000001111000100
000000110011110110
000000010100010000
111111100010000011
111111110000011010
111111100111110000
000000010110011101
000000110001110010
111111111110100110
000000000101010010
111111111011011110
111111111111111001
000000000110000101
000000000001010111
111111111000100111
111111111011111001
111111110110101000
000000101010110111
111111100101100111
000000011111011101
000000011110100101
111111000011110010
111111101111110101
000000010111011000
000000010110000101
000000000101101111
000000011001100100
000000001100100010
000000010101011100
000000010100001100
000000010111100010
000000010101100101
000000010010101000
000000100010011110
000000001000110111
111111111111001010
000000001100000111
000000001111110011
000000001000101101
000000001100001001
111111101011111110
111111101111000000
111111011100000010
111111110011111001
111111101011000101
111111101001110111
111111101100111100
111111101100011100
111111101101111011
111111111111101101
111111111101100000
111111110000100011
000000001000101111
000000000011111000
000000011010011111
000000011000110100
111111101001111001
111111101001100110
111111100010101010
111111110010001010
111111101010110011
111111110000111110
111111110101000001
111111110100101110
111111110111011101
111111111001001000
111111111001110011
111111110000010111
000000000010101110
111111101110011000
000000000010100000
111111111110101111
000000010110000101
000000100001000011
000000010100111100
000000010111111011
000000010010001100
000000010101110101
000000011001001110
000000010110101011
000000010100011001
000000010010100000
111111010000101010
111111010110011110
000000010101010000
111111101010001001
000000001001011110
000000001011000101
111111100100100100
000000000001100010
111111110000110000
000000000010110011
111111110111101011
111111111010001000
111111110101010100
111111111000111100
111111111011000011
111111101111111000
111111111000010000
000000001110101111
000000100111101010
000000000111111111
111111000010011011
000000110011001100
111111100001000100
111111110111010001
000000000100000010
111111110100100100
111111111100000000
111111110111110010
111111111011010100
111111111000001000
111111110100111000
111111111110000110
000000011011111111
000000000101110000
111111111001110001
111111011101111100
000000101000111011
111111011111101001
111111101000110110
111111101101010000
111111101000111110
111111110111011011
111111110110001000
111111111000111001
111111111011111001
111111111011111101
111111111111010011
000000100011111101
111111000011001001
000000100001010011
111111111111011001
000000000001000100
000000010001100101
111111111000000110
000000010000101111
000000000111100101
000000001000111011
000000001011011110
000000001010001010
000000001001001011
000000001001101000
000000001000111100
000000001000110100
000000001000000110
000000001101010000
000000010110111100
000000010111000000
000000001100001101
000000010010111100
111111110010000111
111111110110001101
111111100011110011
111111011010101111
111111100101100001
111111100001101100
111111100111100100
111111101010100101
111111100111110110
111111101011100001
111111110111010111
000000000100001100
000000000001010110
111111110110000011
000000001101110101
000000001010001001
111111110111011000
000000011101101011
000000101000010110
000000100101010110
000000100110110111
000000100000010100
000000010101110110
000000010110110000
000000010111101001
000000011111011100
000000010111110110
000000000011000111
000000001111111011
000000100101001100
000010100111011001
111110111010011001
111111101110110000
000000000100101110
111111111000010100
111111111000100010
111111110011001001
000000000000001110
000000000000010000
000000000011001000
000000000001001101
000000000001010000
111111101000110010
000000110110010001
111111110101010001
000000011101111110
111111100111100000
000000000100111001
111110000111010110
111111011101100100
111111110110110010
111111111100110110
111111110001010101
111111111000111001
111111111010001001
111111111001100111
111111110111111111
111111111001101111
111111111001111110
111111111001000001
111111111011011110
111111111111010100
111111111011000110
111111110110110000
111111111010010011
111111101111011101
111111100011000101
111111101110011101
111111010101111111
111111011100111100
111111011111000110
111111011111011011
111111011011010110
111111100000101101
111111100000001001
111111110111100110
111111010101010011
000001001110011110
111111110100111101
000000011011011110
000000000100100001
111111101000110100
111111111000011001
000000000011011001
111111101110011011
111111101011101001
111111100000000110
111111101000100101
111111100010110011
111111100000000000
111111011101000110
111111100000011001
111111111100001000
111101101000010011
111111001111001110
000000000011101000
000000110100101001
000000010011011010
000000010000110100
000000000000100111
000000010000000000
111111111111110001
000000001001011011
000000000010111110
000000000110011010
000000000101111100
000000010100110100
000000011010111111
000000100110100011
111111111111000111
111111101010011101
000000011010000101
111111111111001001
111111100001001100
111111110100101111
111111101001100110
111111110011011001
111111100101011011
111111101011010010
111111110001000111
111111101100010110
111111110101011000
111111110011011100
000000010111111110
111111101011001011
000000010101010001
111111110111000100
111101001000101101
000001000000111010
000000101001001111
000000011100101000
000000101111010010
000000100010000010
000000100110011110
000000101000011100
000000100001011101
000000100010010111
000000011010100111
111111010000101111
000000010001000110
111111111011100100
000000000010010011
111111011100100111
000000010100111100
000000100011101111
111111111000110110
111111010001001001
111111100000110010
111111010011000100
111111011011011110
111111100100010101
111111011100011110
111111011100001101
111111011110000110
111111101101101011
111111011010000000
111111101000000000
000000000010110100
000000011011101001
111111110000010011
111111110010011111
000000100110101101
000000010011000101
000000001110000011
000000010111110000
000000001100100111
000000010100001010
000000001101110110
000000001111100001
000000001110111101
111111110111101011
000000000010000111
000000000101110010
111111101010110011
000000010001001011
111111110000111100
111111110101011000
000000100000011000
000000011101011001
000000111001000100
000000011011010011
000000100111010111
000000100010010110
000000011110000111
000000011011011001
000000010110101011
000000001101010001
111111100001001010
111111101101110011
000000011000111011
111111111001101111
000000010001000011
111111100111110111
000000001001101100
000000001011000111
000000010101000001
000000000111011011
000000000110010100
000000000100110010
111111111100111011
111111111110111001
000000000100110111
000000000101110000
000000010001110111
111110100001010101
111111100110010111
000000100000011101
000000010010000111
111111111110001101
